0000000000101001
0000000010111011
0000000111111111
0000001101111101
0000010000101001
0000001101111101
0000000111111111
0000000010111011
0000000000101001
0000000010111011
0000001011101001
0000011010111001
0000100110101101
0000101001101111
0000100110101101
0000011010111001
0000001011101001
0000000010111011
0000000111111111
0000011010111001
0000101011010001
0000011000100111
0000000010010110
0000011000100111
0000101011010001
0000011010111001
0000000111111111
0000001101111101
0000100110101101
0000011000100111
1110100001111001
1101000111010011
1110100001111001
0000011000100111
0000100110101101
0000001101111101
0000010000101001
0000101001101111
0000000010010110
1101000111010011
1011000000000000
1101000111010011
0000000010010110
0000101001101111
0000010000101001
0000001101111101
0000100110101101
0000011000100111
1110100001111001
1101000111010011
1110100001111001
0000011000100111
0000100110101101
0000001101111101
0000000111111111
0000011010111001
0000101011010001
0000011000100111
0000000010010110
0000011000100111
0000101011010001
0000011010111001
0000000111111111
0000000010111011
0000001011101001
0000011010111001
0000100110101101
0000101001101111
0000100110101101
0000011010111001
0000001011101001
0000000010111011
0000000000101001
0000000010111011
0000000111111111
0000001101111101
0000010000101001
0000001101111101
0000000111111111
0000000010111011
0000000000101001